
// Auto-generated WiFi Anomaly Detection Model
#ifndef WIFI_MODEL_H
#define WIFI_MODEL_H

const unsigned int g_wifi_model_len = 4232;
const unsigned char g_wifi_model[] = {
  0x1c, 0x00, 0x00, 0x00, 0x54, 0x46, 0x4c, 0x33, 0x14, 0x00, 0x20, 0x00, 0x1c, 0x00, 0x18, 0x00, 0x14, 0x00, 0x10, 0x00, 0x0c, 0x00, 0x00, 0x00, 0x08, 0x00, 0x04, 0x00, 0x14, 0x00, 0x00, 0x00, 0x1c, 0x00, 0x00, 0x00, 0x98, 0x00, 0x00, 0x00, 0xf0, 0x00, 0x00, 0x00, 0xf0, 0x09, 0x00, 0x00, 0x00, 0x0a, 0x00, 0x00, 0x34, 0x10, 0x00, 0x00, 0x03, 0x00, 0x00, 0x00, 0x01, 0x00, 0x00, 0x00, 0x10, 0x00, 0x00, 0x00, 0x00, 0x00, 0x0a, 0x00, 0x10, 0x00, 0x0c, 0x00, 0x08, 0x00, 0x04, 0x00, 0x0a, 0x00, 0x00, 0x00, 0x0c, 0x00, 0x00, 0x00, 0x1c, 0x00, 0x00, 0x00, 0x3c, 0x00, 0x00, 0x00, 0x0f, 0x00, 0x00, 0x00, 0x73, 0x65, 0x72, 0x76, 0x69, 0x6e, 0x67, 0x5f, 0x64, 0x65, 0x66, 0x61, 0x75, 0x6c, 0x74, 0x00, 0x01, 0x00, 0x00, 0x00, 0x04, 0x00, 0x00, 0x00, 0x90, 0xff, 0xff, 0xff, 0x0c, 0x00, 0x00, 0x00, 0x04, 0x00, 0x00, 0x00, 0x08, 0x00, 0x00, 0x00, 0x6f, 0x75, 0x74, 0x70, 0x75, 0x74, 0x5f, 0x30, 0x00, 0x00, 0x00, 0x00, 0x01, 0x00, 0x00, 0x00, 0x04, 0x00, 0x00, 0x00, 0xde, 0xf6, 0xff, 0xff, 0x04, 0x00, 0x00, 0x00, 0x0c, 0x00, 0x00, 0x00, 0x6b, 0x65, 0x72, 0x61, 0x73, 0x5f, 0x74, 0x65, 0x6e, 0x73, 0x6f, 0x72, 0x00, 0x00, 0x00, 0x00, 0x02, 0x00, 0x00, 0x00, 0x34, 0x00, 0x00, 0x00, 0x04, 0x00, 0x00, 0x00, 0xdc, 0xff, 0xff, 0xff, 0x0f, 0x00, 0x00, 0x00, 0x04, 0x00, 0x00, 0x00, 0x13, 0x00, 0x00, 0x00, 0x43, 0x4f, 0x4e, 0x56, 0x45, 0x52, 0x53, 0x49, 0x4f, 0x4e, 0x5f, 0x4d, 0x45, 0x54, 0x41, 0x44, 0x41, 0x54, 0x41, 0x00, 0x08, 0x00, 0x0c, 0x00, 0x08, 0x00, 0x04, 0x00, 0x08, 0x00, 0x00, 0x00, 0x0e, 0x00, 0x00, 0x00, 0x04, 0x00, 0x00, 0x00, 0x13, 0x00, 0x00, 0x00, 0x6d, 0x69, 0x6e, 0x5f, 0x72, 0x75, 0x6e, 0x74, 0x69, 0x6d, 0x65, 0x5f, 0x76, 0x65, 0x72, 0x73, 0x69, 0x6f, 0x6e, 0x00, 0x10, 0x00, 0x00, 0x00, 0xfc, 0x08, 0x00, 0x00, 0xf4, 0x08, 0x00, 0x00, 0xa4, 0x08, 0x00, 0x00, 0x6c, 0x08, 0x00, 0x00, 0x44, 0x08, 0x00, 0x00, 0xb4, 0x06, 0x00, 0x00, 0xa4, 0x04, 0x00, 0x00, 0x94, 0x02, 0x00, 0x00, 0x04, 0x01, 0x00, 0x00, 0xb4, 0x00, 0x00, 0x00, 0xac, 0x00, 0x00, 0x00, 0xa4, 0x00, 0x00, 0x00, 0x9c, 0x00, 0x00, 0x00, 0x94, 0x00, 0x00, 0x00, 0x74, 0x00, 0x00, 0x00, 0x04, 0x00, 0x00, 0x00, 0x9a, 0xf7, 0xff, 0xff, 0x04, 0x00, 0x00, 0x00, 0x60, 0x00, 0x00, 0x00, 0x10, 0x00, 0x00, 0x00, 0x00, 0x00, 0x00, 0x00, 0x08, 0x00, 0x0e, 0x00, 0x08, 0x00, 0x04, 0x00, 0x08, 0x00, 0x00, 0x00, 0x10, 0x00, 0x00, 0x00, 0x24, 0x00, 0x00, 0x00, 0x00, 0x00, 0x06, 0x00, 0x08, 0x00, 0x04, 0x00, 0x06, 0x00, 0x00, 0x00, 0x04, 0x00, 0x00, 0x00, 0x00, 0x00, 0x00, 0x00, 0x0c, 0x00, 0x18, 0x00, 0x14, 0x00, 0x10, 0x00, 0x0c, 0x00, 0x04, 0x00, 0x0c, 0x00, 0x00, 0x00, 0xaf, 0xa6, 0x00, 0x47, 0x49, 0xef, 0x1e, 0x5f, 0x02, 0x00, 0x00, 0x00, 0x02, 0x00, 0x00, 0x00, 0x04, 0x00, 0x00, 0x00, 0x06, 0x00, 0x00, 0x00, 0x32, 0x2e, 0x32, 0x30, 0x2e, 0x30, 0x00, 0x00, 0x06, 0xf8, 0xff, 0xff, 0x04, 0x00, 0x00, 0x00, 0x10, 0x00, 0x00, 0x00, 0x31, 0x2e, 0x35, 0x2e, 0x30, 0x00, 0x00, 0x00, 0x00, 0x00, 0x00, 0x00, 0x00, 0x00, 0x00, 0x00, 0xb4, 0xf1, 0xff, 0xff, 0xb8, 0xf1, 0xff, 0xff, 0xbc, 0xf1, 0xff, 0xff, 0xc0, 0xf1, 0xff, 0xff, 0x32, 0xf8, 0xff, 0xff, 0x04, 0x00, 0x00, 0x00, 0x40, 0x00, 0x00, 0x00, 0xcf, 0x2c, 0x41, 0x3e, 0xcd, 0x7c, 0x46, 0xbe, 0x0b, 0xa8, 0x52, 0x3d, 0x20, 0x1b, 0x3f, 0x3e, 0x0b, 0x82, 0x61, 0xbe, 0x9e, 0x9b, 0x73, 0xbe, 0x38, 0xc4, 0x1a, 0x3e, 0x50, 0x8f, 0x29, 0x3e, 0x1a, 0x9b, 0x4d, 0xbd, 0x23, 0x9d, 0x82, 0x3e, 0x03, 0xba, 0x44, 0xbe, 0x50, 0xa1, 0xa9, 0x3e, 0xe1, 0x83, 0xd6, 0x3e, 0x12, 0x12, 0x6d, 0x3e, 0x48, 0xc6, 0xb2, 0xbd, 0x57, 0x02, 0x9a, 0x3e, 0x7e, 0xf8, 0xff, 0xff, 0x04, 0x00, 0x00, 0x00, 0x80, 0x01, 0x00, 0x00, 0x93, 0x12, 0xb8, 0xbe, 0x4e, 0x0d, 0x61, 0x3e, 0xe5, 0x89, 0x44, 0xbe, 0x23, 0x26, 0xc9, 0xbd, 0xae, 0x0a, 0xf1, 0x3e, 0xbd, 0x8a, 0x52, 0x3e, 0xd8, 0x67, 0xb0, 0x3e, 0xc6, 0xa3, 0xa7, 0x3e, 0xf4, 0xfd, 0x62, 0x3e, 0x3c, 0x30, 0x6d, 0x3e, 0x67, 0x58, 0x00, 0xbe, 0x19, 0xb6, 0xa3, 0x3e, 0xba, 0x50, 0xfe, 0xbd, 0x6d, 0xdf, 0xa3, 0x3e, 0x31, 0x32, 0x90, 0x3e, 0xa3, 0x06, 0x0a, 0x3f, 0xca, 0xb6, 0x02, 0xbe, 0xaf, 0xe8, 0x89, 0x3e, 0x3b, 0xba, 0xcf, 0x3e, 0x12, 0x14, 0x8e, 0xbe, 0x13, 0x8f, 0x63, 0xbc, 0x47, 0x9a, 0x2d, 0x3f, 0xfe, 0xff, 0x9e, 0xbe, 0x61, 0x3f, 0x08, 0xbf, 0x73, 0x52, 0x49, 0x3e, 0x88, 0x91, 0xa6, 0xbc, 0x9a, 0x30, 0x87, 0xbe, 0x51, 0x90, 0x29, 0xbe, 0xfe, 0x9e, 0x8a, 0xbe, 0xa0, 0xa3, 0xd7, 0xbd, 0xa5, 0xd2, 0xe2, 0xbe, 0xf3, 0x72, 0xc0, 0x3e, 0x2b, 0x6a, 0x4b, 0xbe, 0x7e, 0x1f, 0xd8, 0xbc, 0xf0, 0x05, 0xc6, 0xbc, 0x81, 0xec, 0x52, 0x3e, 0x5c, 0xd0, 0xcc, 0x3e, 0xc7, 0x9d, 0xc6, 0xbe, 0xa6, 0xa5, 0x75, 0x3e, 0xbd, 0x04, 0xd2, 0x3e, 0x45, 0xc3, 0xe3, 0xbd, 0x05, 0x1d, 0xc5, 0x3e, 0xf9, 0xe5, 0x25, 0x3f, 0x76, 0x18, 0x05, 0xbe, 0x78, 0x9a, 0xa4, 0xbd, 0x9c, 0x75, 0x54, 0xbe, 0xeb, 0xdf, 0x33, 0x3e, 0xe2, 0xdf, 0xa5, 0xbe, 0x96, 0x1c, 0x7c, 0xbe, 0x28, 0x80, 0x0a, 0xbf, 0xe5, 0xc7, 0xb1, 0x3d, 0x15, 0x07, 0xf5, 0xbc, 0x1c, 0xbc, 0xff, 0x3d, 0xb0, 0x6d, 0x18, 0x3f, 0x07, 0x22, 0xba, 0x3e, 0xeb, 0x9f, 0xb2, 0xbe, 0x3a, 0xc2, 0xce, 0x3e, 0x0a, 0x06, 0x81, 0xbd, 0x86, 0xaa, 0xd1, 0xbd, 0x01, 0x7e, 0x4d, 0xbe, 0xdd, 0xc2, 0x28, 0x3e, 0xdc, 0x0b, 0x93, 0x3e, 0x81, 0x16, 0x44, 0xbf, 0x20, 0xf7, 0x8f, 0x3c, 0x7e, 0x33, 0x9e, 0xbe, 0xe4, 0xfd, 0x96, 0x3e, 0xd4, 0xea, 0x30, 0xbf, 0x32, 0xfb, 0x1a, 0x3d, 0xd1, 0xba, 0x3d, 0xbe, 0xbe, 0x06, 0x2b, 0xbf, 0x9b, 0x1b, 0x07, 0x3f, 0xa6, 0x77, 0xee, 0xbe, 0x1c, 0x80, 0x88, 0xbe, 0xe1, 0x60, 0x8f, 0xbe, 0xde, 0x2c, 0x60, 0x3e, 0x0d, 0x7d, 0x58, 0xbe, 0x14, 0xdb, 0x29, 0xbf, 0x43, 0x4a, 0x19, 0xbf, 0x21, 0x5b, 0x0c, 0x3e, 0x6b, 0x27, 0xf7, 0x3e, 0x6a, 0xcb, 0x67, 0xbc, 0x6e, 0xa9, 0x30, 0x3f, 0x02, 0x78, 0xab, 0x3d, 0xdd, 0x73, 0x06, 0xbf, 0x8a, 0x1d, 0xfe, 0xbd, 0x08, 0x67, 0xfc, 0xbe, 0x66, 0xd2, 0x76, 0x3e, 0x1e, 0xfe, 0x79, 0xbe, 0x77, 0x97, 0x99, 0xbe, 0x24, 0x3e, 0x9c, 0x3e, 0x25, 0xc8, 0x29, 0xbd, 0x28, 0x84, 0xc8, 0xbe, 0xfc, 0xa3, 0x09, 0x3f, 0xda, 0xfc, 0xd2, 0x3e, 0x04, 0x53, 0xb3, 0x3e, 0x60, 0xdf, 0xad, 0xbd, 0x0a, 0xfa, 0xff, 0xff, 0x04, 0x00, 0x00, 0x00, 0x00, 0x02, 0x00, 0x00, 0x93, 0xb3, 0x60, 0xbd, 0xa1, 0xd8, 0x04, 0x3f, 0x1a, 0xf8, 0x91, 0x3e, 0x98, 0x74, 0xed, 0x3e, 0x50, 0xe2, 0x20, 0x3e, 0xc8, 0xdc, 0x42, 0x3d, 0xbc, 0x2e, 0x43, 0x3e, 0xb5, 0xac, 0xe2, 0x3e, 0x71, 0xbb, 0xac, 0x3e, 0xff, 0x89, 0x70, 0xbe, 0xb6, 0x08, 0xbf, 0x3e, 0xf8, 0xb2, 0x50, 0x3a, 0xbf, 0x0b, 0x67, 0xbc, 0xc5, 0xe7, 0x97, 0x3e, 0x4c, 0x16, 0x5d, 0xbe, 0xd0, 0x96, 0x92, 0x3e, 0x57, 0x9b, 0xfe, 0x3e, 0x8b, 0xe6, 0x7b, 0xbe, 0x26, 0x00, 0xa9, 0x3e, 0xdf, 0xfd, 0xb5, 0x3e, 0x27, 0x0c, 0x0b, 0xbf, 0xa5, 0x7d, 0xd8, 0x3e, 0x77, 0xd1, 0x57, 0x3d, 0x3e, 0x61, 0x84, 0xbd, 0xf2, 0x79, 0x00, 0xbe, 0x29, 0x81, 0xcb, 0x3d, 0xf3, 0xaa, 0x10, 0xbc, 0x29, 0x31, 0xf8, 0x3e, 0x62, 0x64, 0x8e, 0x3e, 0x98, 0xa0, 0xf1, 0x3e, 0x2d, 0x81, 0xb5, 0x3d, 0x09, 0x09, 0x0b, 0x3f, 0xa6, 0x13, 0xba, 0x3d, 0xfd, 0x2a, 0x7c, 0xbd, 0x68, 0xab, 0x85, 0x3d, 0xee, 0x4d, 0x27, 0x3e, 0xd9, 0x82, 0xc5, 0xbe, 0xc5, 0x40, 0x19, 0xbf, 0xb5, 0x89, 0xd3, 0x3e, 0x22, 0xb0, 0x1a, 0x3f, 0x80, 0x1d, 0xcf, 0x3d, 0xa2, 0x47, 0x24, 0x3f, 0x01, 0x01, 0x3a, 0x3d, 0x65, 0x0e, 0xdc, 0x3e, 0xf5, 0xda, 0x27, 0xbd, 0x27, 0x5a, 0xb9, 0x3e, 0xca, 0xfb, 0x2c, 0xbc, 0x7f, 0x00, 0xf1, 0x3e, 0x47, 0x2a, 0x8f, 0x3e, 0x69, 0x1e, 0xc1, 0x3e, 0x68, 0x7e, 0x0e, 0x3d, 0x4e, 0xc1, 0x1d, 0x3e, 0xaf, 0xf8, 0x43, 0x3d, 0x42, 0x53, 0xda, 0xbe, 0x4e, 0x37, 0xb6, 0xbe, 0xbc, 0x4a, 0xc9, 0x3d, 0x63, 0x08, 0xac, 0x3e, 0xb1, 0xde, 0x0a, 0x3e, 0x6d, 0x08, 0xcb, 0xbd, 0xd2, 0xf1, 0x2a, 0xbe, 0xf6, 0xc1, 0x30, 0x3e, 0xea, 0x49, 0x90, 0x3c, 0xed, 0xff, 0x80, 0xbe, 0xb5, 0x19, 0xed, 0x3e, 0xd3, 0x2e, 0x03, 0x3e, 0x17, 0xe0, 0x61, 0xbe, 0x51, 0x6f, 0x81, 0xbe, 0x6c, 0xa4, 0xe5, 0x3e, 0x0a, 0xc9, 0xb7, 0x3a, 0x41, 0x3d, 0x6e, 0x3d, 0x8f, 0x1e, 0x3c, 0xba, 0xaa, 0xab, 0xb7, 0x3e, 0xea, 0xac, 0xc3, 0x3d, 0x80, 0xd7, 0xbc, 0x3e, 0x6b, 0xae, 0x97, 0x3e, 0x07, 0xe1, 0xf7, 0x3e, 0xad, 0x6f, 0x09, 0x3f, 0x32, 0x09, 0xcb, 0x3d, 0xd4, 0xad, 0x1e, 0x3f, 0x24, 0xdf, 0x49, 0x3e, 0x8d, 0x55, 0x05, 0xbf, 0x4e, 0x6a, 0xb1, 0xbd, 0xb1, 0xcc, 0x91, 0xbc, 0x4f, 0xb3, 0x00, 0xbf, 0xec, 0x7e, 0x50, 0x3e, 0x0b, 0x8d, 0x0e, 0xbe, 0x5d, 0x79, 0x51, 0xbe, 0x15, 0x8b, 0x8b, 0xbe, 0x4b, 0x57, 0x8c, 0xbe, 0xb9, 0x35, 0x14, 0xbe, 0x2b, 0x62, 0x81, 0x3e, 0xc3, 0x47, 0xa1, 0xbe, 0x5b, 0x82, 0x9b, 0x3b, 0x3c, 0x2f, 0x13, 0xbe, 0xd4, 0xc7, 0x5f, 0x3e, 0x89, 0x8b, 0xf0, 0xbe, 0xa0, 0xe3, 0x16, 0x3f, 0x2c, 0x50, 0x02, 0x3f, 0x57, 0xa5, 0x16, 0x3e, 0x71, 0x9d, 0xbd, 0xbd, 0x83, 0xe7, 0x0e, 0xbe, 0x55, 0x83, 0x6b, 0xbe, 0x9a, 0xb3, 0x2c, 0x3e, 0x53, 0xfb, 0x81, 0x3e, 0x13, 0x7f, 0x4c, 0x3f, 0x8c, 0x1c, 0x86, 0x3e, 0x39, 0x8a, 0x29, 0x3e, 0x40, 0xd2, 0x1c, 0x3e, 0xc3, 0xfa, 0xd1, 0xbd, 0x8b, 0x05, 0x0c, 0x3d, 0x70, 0x05, 0xdc, 0x3d, 0xff, 0x59, 0x00, 0x3f, 0x39, 0x05, 0x6a, 0xbe, 0x0d, 0x3e, 0x6f, 0x3e, 0x68, 0x01, 0xc2, 0xbe, 0x78, 0x41, 0xa4, 0xbe, 0x22, 0x8d, 0xb2, 0xbe, 0x24, 0x25, 0xbf, 0x3e, 0xea, 0xc7, 0xb9, 0x3d, 0x53, 0xc3, 0xb6, 0xbe, 0xe4, 0xdf, 0xf3, 0xbd, 0xae, 0x82, 0x39, 0xbd, 0x4e, 0x93, 0x4b, 0xbe, 0xf8, 0x80, 0x65, 0xbe, 0xcc, 0xad, 0xdf, 0xbe, 0x03, 0xa3, 0x10, 0xbd, 0x7d, 0x5f, 0xc7, 0xbe, 0x76, 0x39, 0x1e, 0x3e, 0x16, 0xfc, 0xff, 0xff, 0x04, 0x00, 0x00, 0x00, 0x00, 0x02, 0x00, 0x00, 0x9b, 0x84, 0xe0, 0x3e, 0x77, 0xb8, 0x07, 0x3f, 0xdc, 0xe7, 0x8a, 0xbe, 0x2e, 0x88, 0x91, 0xbe, 0x6b, 0x77, 0x4d, 0xbd, 0xc8, 0x63, 0x92, 0x3e, 0x8b, 0x07, 0x9a, 0x3d, 0x9f, 0xaa, 0xd6, 0x3d, 0xce, 0x27, 0xa1, 0x3d, 0x14, 0x13, 0x61, 0x3e, 0xcf, 0x1b, 0xc9, 0xbe, 0x57, 0x57, 0x35, 0xbe, 0x03, 0x65, 0x1b, 0x3e, 0x2c, 0x92, 0xb4, 0x3c, 0xdf, 0xde, 0x38, 0x3e, 0x7d, 0xa2, 0x2f, 0xbe, 0xdd, 0x92, 0xd8, 0xbe, 0xce, 0x07, 0xfb, 0xbe, 0x3c, 0x53, 0x3d, 0x3e, 0xd2, 0x47, 0x45, 0xbe, 0x5a, 0x60, 0x1a, 0x3f, 0x68, 0xd2, 0x4c, 0xbd, 0x85, 0x80, 0x5c, 0x3d, 0x30, 0xf3, 0x61, 0xbe, 0x39, 0x9b, 0xd9, 0xbe, 0x0a, 0x7e, 0x04, 0x3f, 0x59, 0x85, 0x08, 0x3f, 0xda, 0x1b, 0xd3, 0x3e, 0x0b, 0xff, 0xc5, 0x3e, 0xf6, 0xbe, 0xbe, 0x3e, 0xf9, 0x68, 0xa0, 0x3e, 0x9d, 0xad, 0xf1, 0x3e, 0xa3, 0xb3, 0xcb, 0xbd, 0x49, 0xaa, 0x81, 0x3e, 0x7f, 0xe9, 0x79, 0x3e, 0x18, 0x47, 0x13, 0x3e, 0xc8, 0xf6, 0x45, 0xbd, 0xe0, 0x4a, 0xbf, 0x3e, 0xa6, 0x49, 0x4b, 0x3c, 0x1d, 0xd3, 0xf1, 0xbe, 0xa2, 0xdf, 0x6d, 0xbe, 0xc3, 0x6b, 0x9f, 0xbe, 0xab, 0x2d, 0xb5, 0x3e, 0xfa, 0x18, 0xd1, 0x3e, 0x96, 0x90, 0x19, 0x3f, 0x4c, 0x2b, 0x8c, 0x3d, 0xf5, 0x79, 0x0c, 0x3f, 0xae, 0xc2, 0x7e, 0xbe, 0x77, 0x7e, 0xf7, 0x3e, 0xb1, 0x24, 0xa3, 0xbe, 0x6c, 0x0b, 0x9e, 0x3e, 0x33, 0x63, 0x9c, 0xbe, 0x53, 0x54, 0x78, 0x3d, 0x6c, 0x90, 0xf2, 0xbd, 0x02, 0x4b, 0x22, 0xbc, 0xe8, 0x42, 0x89, 0xbd, 0xbd, 0x03, 0x8d, 0x3e, 0xcc, 0x33, 0x67, 0x3e, 0x4a, 0x0d, 0x1d, 0x3f, 0x16, 0xc7, 0x7f, 0x3e, 0xf4, 0xfd, 0x30, 0xbe, 0x17, 0xd6, 0x9d, 0xbe, 0x79, 0xc3, 0x33, 0x3e, 0x4d, 0x89, 0xec, 0xbd, 0x74, 0xd5, 0x1a, 0xbe, 0x7c, 0x81, 0xd0, 0x3e, 0x35, 0xf1, 0xaf, 0xbe, 0xb9, 0x8b, 0x7d, 0xbe, 0x29, 0xe9, 0xea, 0x3e, 0xad, 0xf6, 0xc6, 0xbd, 0x58, 0x1d, 0x48, 0x3e, 0x41, 0xd2, 0x22, 0x3d, 0x95, 0xcd, 0xe8, 0x3e, 0xac, 0x2c, 0x2b, 0x3d, 0x5b, 0xdd, 0x3f, 0x3e, 0xcc, 0x12, 0xbf, 0x3d, 0xd5, 0x5d, 0xf4, 0x3e, 0x20, 0x24, 0x83, 0x3d, 0x29, 0xa0, 0xeb, 0xbe, 0x1e, 0x3a, 0xa0, 0xbd, 0xa2, 0x4c, 0x49, 0xbe, 0x7a, 0xeb, 0xc1, 0xbe, 0x84, 0xda, 0xc8, 0xbd, 0x53, 0x5a, 0xb8, 0xbe, 0x24, 0xff, 0xb9, 0x3e, 0x76, 0x09, 0xd6, 0x3d, 0xad, 0x6f, 0x9c, 0x3d, 0x2c, 0xd0, 0xbd, 0xbe, 0x41, 0x2d, 0x6f, 0x3c, 0x70, 0x71, 0x84, 0xbe, 0x60, 0x85, 0x0c, 0xbe, 0x48, 0xb1, 0x05, 0xbe, 0x28, 0x06, 0x0b, 0xbe, 0xc6, 0x8a, 0xc6, 0xbe, 0x08, 0x31, 0x27, 0xbe, 0x20, 0x4f, 0xee, 0x3d, 0xb0, 0xa4, 0xc1, 0xbd, 0xe1, 0x50, 0x02, 0x3f, 0xbe, 0x57, 0x5f, 0xbc, 0x97, 0xeb, 0x60, 0x3e, 0x09, 0x6e, 0x04, 0x3f, 0x8a, 0xc0, 0x47, 0xbe, 0x00, 0xa0, 0x6c, 0xbe, 0xbc, 0x7f, 0xff, 0xbd, 0x22, 0x5a, 0xa8, 0x3b, 0xca, 0x7d, 0x96, 0x3e, 0x13, 0x93, 0xb3, 0xbd, 0x79, 0x24, 0xb3, 0xbd, 0xda, 0x5f, 0x80, 0x3e, 0xdd, 0xc7, 0x46, 0x3d, 0xb0, 0x66, 0x6b, 0xbd, 0xb6, 0x75, 0x1b, 0x3e, 0xeb, 0x9f, 0xde, 0xbd, 0x20, 0xc7, 0x29, 0x3f, 0xb1, 0x6f, 0x26, 0xbe, 0xfe, 0x1f, 0x25, 0xbc, 0xe5, 0x41, 0x9a, 0xbd, 0xf6, 0x75, 0xb4, 0xbe, 0x93, 0x2e, 0xf8, 0x3e, 0x34, 0xf0, 0x3c, 0x3d, 0x82, 0xe4, 0x28, 0xbe, 0x2b, 0xd7, 0x83, 0x3e, 0xc8, 0xf2, 0x77, 0x3e, 0x4e, 0x96, 0x27, 0x3e, 0xce, 0x19, 0x0e, 0xbe, 0x18, 0x10, 0x4f, 0x3e, 0x60, 0x21, 0x22, 0x3e, 0xd6, 0xf8, 0xe3, 0x3e, 0x22, 0xfe, 0xff, 0xff, 0x04, 0x00, 0x00, 0x00, 0x80, 0x01, 0x00, 0x00, 0x2e, 0xf6, 0x8d, 0xbe, 0xe8, 0x35, 0x14, 0xbf, 0x92, 0xa5, 0x36, 0x3e, 0xc4, 0x07, 0x23, 0xbe, 0xfd, 0xe4, 0x7a, 0xbe, 0x67, 0x6d, 0x9f, 0x3d, 0x2a, 0x4b, 0xe2, 0x3e, 0x36, 0xd5, 0x20, 0x3f, 0x1b, 0xea, 0x35, 0xbe, 0x4a, 0xe8, 0xef, 0x3e, 0x24, 0x8b, 0x1a, 0x3e, 0x79, 0x79, 0xd5, 0xbd, 0x19, 0xb6, 0xc4, 0xbe, 0x2b, 0x6d, 0x40, 0xbe, 0x2c, 0x24, 0xce, 0xbe, 0xf9, 0x36, 0x02, 0x3e, 0x34, 0xc5, 0x1f, 0x3f, 0xe3, 0x9e, 0x07, 0xbe, 0xb8, 0x39, 0x0c, 0xbf, 0xf6, 0x4f, 0xc9, 0xbd, 0xfb, 0x77, 0x97, 0x3e, 0x5d, 0x6e, 0x95, 0xbe, 0x65, 0xcf, 0x0d, 0xbe, 0xd3, 0x45, 0x95, 0xbd, 0xb0, 0xd0, 0x13, 0xbf, 0x4f, 0x0c, 0xcd, 0x3e, 0x98, 0xc3, 0xf4, 0xbe, 0xd6, 0xdb, 0x27, 0x3e, 0xe9, 0x21, 0x8d, 0xbe, 0x9a, 0xc6, 0xb7, 0x3e, 0x56, 0xaf, 0x54, 0x3e, 0xee, 0xab, 0x86, 0x3e, 0xe3, 0x0a, 0xec, 0xbe, 0xcf, 0xea, 0xa5, 0xbd, 0x91, 0xb5, 0x56, 0xbe, 0x09, 0x71, 0x02, 0x3f, 0xf5, 0xdf, 0x17, 0x3f, 0x3d, 0x8f, 0x53, 0xbe, 0xf5, 0xd2, 0x82, 0xbe, 0x14, 0x2e, 0x48, 0x3e, 0x22, 0x8d, 0xb2, 0xbe, 0xd1, 0x44, 0x74, 0xbe, 0x05, 0xcf, 0x51, 0xbe, 0xfc, 0x46, 0xfe, 0x3d, 0xd8, 0xe8, 0x8f, 0xbd, 0xa9, 0xad, 0x07, 0xbf, 0x9c, 0xcd, 0x88, 0x3e, 0xdd, 0x68, 0x17, 0x3e, 0xd5, 0xfd, 0xa3, 0x3e, 0x0a, 0x08, 0x3e, 0x3e, 0xb1, 0xc9, 0x62, 0xbe, 0xc1, 0x6f, 0x94, 0xbe, 0x96, 0x42, 0x9f, 0x3e, 0x52, 0xa4, 0x09, 0xbf, 0x8d, 0xd2, 0x9e, 0xbd, 0xfe, 0x09, 0x08, 0x3f, 0xa1, 0xd4, 0x42, 0xbe, 0x56, 0x68, 0x71, 0x3e, 0x9f, 0x93, 0x1d, 0x3e, 0x28, 0x7d, 0xb0, 0x3d, 0xd8, 0x71, 0xfd, 0x3d, 0x65, 0x36, 0x8b, 0xbe, 0x8e, 0x16, 0x86, 0x3e, 0x93, 0x6d, 0xe2, 0xbd, 0x0b, 0xae, 0x77, 0xbe, 0xa4, 0x5f, 0xdc, 0xbd, 0x53, 0x40, 0x4d, 0xbe, 0x20, 0x37, 0x1b, 0x3f, 0xd3, 0x31, 0x4c, 0xbe, 0x62, 0xd1, 0x41, 0xbe, 0x11, 0x4f, 0xd8, 0xbe, 0x0c, 0xca, 0x00, 0x3f, 0xa8, 0xc6, 0xdc, 0xbe, 0x2a, 0x4a, 0x11, 0xbf, 0x2f, 0x29, 0x86, 0xbe, 0x20, 0x4d, 0x80, 0xbd, 0xb4, 0xd7, 0x31, 0xbd, 0xec, 0x35, 0x24, 0x3e, 0x5c, 0xe3, 0x5a, 0xbe, 0xcc, 0x3e, 0xde, 0x3e, 0x73, 0x16, 0x88, 0x3e, 0xe8, 0xdf, 0x23, 0x3f, 0x11, 0xdc, 0xff, 0x3d, 0xc7, 0xbb, 0x8f, 0xbe, 0x43, 0x38, 0xa3, 0xbe, 0x97, 0xba, 0x0d, 0x3f, 0x64, 0x1b, 0x3d, 0x3f, 0x10, 0x10, 0x6d, 0xbe, 0xe1, 0x39, 0x88, 0x3e, 0xe7, 0xa9, 0x15, 0xbf, 0x16, 0xa7, 0x24, 0xbe, 0x2e, 0x0c, 0xb1, 0xbe, 0xbb, 0xc6, 0x45, 0xbf, 0x8c, 0x65, 0xe4, 0xbe, 0x3e, 0x32, 0x36, 0x3f, 0xee, 0x9d, 0x0f, 0xbd, 0xae, 0xff, 0xff, 0xff, 0x04, 0x00, 0x00, 0x00, 0x18, 0x00, 0x00, 0x00, 0x94, 0x54, 0x87, 0x3c, 0x26, 0x51, 0xf8, 0x3d, 0x8f, 0xaf, 0x78, 0xbe, 0x43, 0x5b, 0x7e, 0xbd, 0x06, 0xb4, 0x37, 0xbe, 0x1c, 0x48, 0x6c, 0x3e, 0xd2, 0xff, 0xff, 0xff, 0x04, 0x00, 0x00, 0x00, 0x20, 0x00, 0x00, 0x00, 0x84, 0xab, 0x3d, 0x3e, 0xb3, 0x84, 0x92, 0x3e, 0xfe, 0x03, 0xbf, 0x3e, 0x0c, 0xd7, 0xc4, 0x3e, 0x69, 0x9d, 0x35, 0x3e, 0x97, 0x02, 0xcf, 0xbd, 0xdd, 0x22, 0xe9, 0x3d, 0x33, 0x0b, 0xf2, 0xbc, 0x00, 0x00, 0x06, 0x00, 0x08, 0x00, 0x04, 0x00, 0x06, 0x00, 0x00, 0x00, 0x04, 0x00, 0x00, 0x00, 0x40, 0x00, 0x00, 0x00, 0x41, 0xbb, 0x81, 0x3e, 0xf8, 0xa7, 0xb8, 0x3d, 0xaf, 0x40, 0xf7, 0xba, 0x56, 0xf7, 0x50, 0xbe, 0xdf, 0x40, 0xad, 0xbd, 0x6e, 0x87, 0x74, 0x3e, 0xf1, 0x67, 0x88, 0x3e, 0x33, 0x95, 0xc6, 0xbd, 0x04, 0x14, 0x3c, 0x3e, 0x4b, 0xbd, 0x8d, 0x3d, 0xd4, 0xbe, 0x64, 0xbe, 0xf7, 0x35, 0x1e, 0xbc, 0x6d, 0x2e, 0x05, 0x3d, 0x90, 0x95, 0xf4, 0x3c, 0xf8, 0x62, 0x1e, 0x3e, 0xbd, 0xca, 0xdd, 0x3b, 0xe4, 0xf9, 0xff, 0xff, 0xe8, 0xf9, 0xff, 0xff, 0x0f, 0x00, 0x00, 0x00, 0x4d, 0x4c, 0x49, 0x52, 0x20, 0x43, 0x6f, 0x6e, 0x76, 0x65, 0x72, 0x74, 0x65, 0x64, 0x2e, 0x00, 0x01, 0x00, 0x00, 0x00, 0x14, 0x00, 0x00, 0x00, 0x00, 0x00, 0x0e, 0x00, 0x18, 0x00, 0x14, 0x00, 0x10, 0x00, 0x0c, 0x00, 0x08, 0x00, 0x04, 0x00, 0x0e, 0x00, 0x00, 0x00, 0x14, 0x00, 0x00, 0x00, 0x1c, 0x00, 0x00, 0x00, 0x20, 0x01, 0x00, 0x00, 0x24, 0x01, 0x00, 0x00, 0x28, 0x01, 0x00, 0x00, 0x04, 0x00, 0x00, 0x00, 0x6d, 0x61, 0x69, 0x6e, 0x00, 0x00, 0x00, 0x00, 0x04, 0x00, 0x00, 0x00, 0xc8, 0x00, 0x00, 0x00, 0x80, 0x00, 0x00, 0x00, 0x38, 0x00, 0x00, 0x00, 0x04, 0x00, 0x00, 0x00, 0x9a, 0xff, 0xff, 0xff, 0x10, 0x00, 0x00, 0x00, 0x00, 0x00, 0x00, 0x08, 0x0c, 0x00, 0x00, 0x00, 0x10, 0x00, 0x00, 0x00, 0x64, 0xfa, 0xff, 0xff, 0x01, 0x00, 0x00, 0x00, 0x0c, 0x00, 0x00, 0x00, 0x03, 0x00, 0x00, 0x00, 0x0b, 0x00, 0x00, 0x00, 0x04, 0x00, 0x00, 0x00, 0x03, 0x00, 0x00, 0x00, 0xca, 0xff, 0xff, 0xff, 0x10, 0x00, 0x00, 0x00, 0x00, 0x00, 0x00, 0x08, 0x10, 0x00, 0x00, 0x00, 0x14, 0x00, 0x00, 0x00, 0x76, 0xff, 0xff, 0xff, 0x00, 0x00, 0x00, 0x01, 0x01, 0x00, 0x00, 0x00, 0x0b, 0x00, 0x00, 0x00, 0x03, 0x00, 0x00, 0x00, 0x0a, 0x00, 0x00, 0x00, 0x05, 0x00, 0x00, 0x00, 0x01, 0x00, 0x00, 0x00, 0x00, 0x00, 0x0e, 0x00, 0x14, 0x00, 0x00, 0x00, 0x10, 0x00, 0x0c, 0x00, 0x0b, 0x00, 0x04, 0x00, 0x0e, 0x00, 0x00, 0x00, 0x10, 0x00, 0x00, 0x00, 0x00, 0x00, 0x00, 0x08, 0x10, 0x00, 0x00, 0x00, 0x14, 0x00, 0x00, 0x00, 0xba, 0xff, 0xff, 0xff, 0x00, 0x00, 0x00, 0x01, 0x01, 0x00, 0x00, 0x00, 0x0a, 0x00, 0x00, 0x00, 0x03, 0x00, 0x00, 0x00, 0x09, 0x00, 0x00, 0x00, 0x06, 0x00, 0x00, 0x00, 0x02, 0x00, 0x00, 0x00, 0x00, 0x00, 0x0e, 0x00, 0x16, 0x00, 0x00, 0x00, 0x10, 0x00, 0x0c, 0x00, 0x0b, 0x00, 0x04, 0x00, 0x0e, 0x00, 0x00, 0x00, 0x18, 0x00, 0x00, 0x00, 0x00, 0x00, 0x00, 0x08, 0x18, 0x00, 0x00, 0x00, 0x1c, 0x00, 0x00, 0x00, 0x00, 0x00, 0x06, 0x00, 0x08, 0x00, 0x07, 0x00, 0x06, 0x00, 0x00, 0x00, 0x00, 0x00, 0x00, 0x01, 0x01, 0x00, 0x00, 0x00, 0x09, 0x00, 0x00, 0x00, 0x03, 0x00, 0x00, 0x00, 0x00, 0x00, 0x00, 0x00, 0x07, 0x00, 0x00, 0x00, 0x08, 0x00, 0x00, 0x00, 0x01, 0x00, 0x00, 0x00, 0x0c, 0x00, 0x00, 0x00, 0x01, 0x00, 0x00, 0x00, 0x00, 0x00, 0x00, 0x00, 0x0d, 0x00, 0x00, 0x00, 0x80, 0x04, 0x00, 0x00, 0x2c, 0x04, 0x00, 0x00, 0xd8, 0x03, 0x00, 0x00, 0x9c, 0x03, 0x00, 0x00, 0x5c, 0x03, 0x00, 0x00, 0x1c, 0x03, 0x00, 0x00, 0xdc, 0x02, 0x00, 0x00, 0x90, 0x02, 0x00, 0x00, 0x2c, 0x02, 0x00, 0x00, 0x98, 0x01, 0x00, 0x00, 0xfc, 0x00, 0x00, 0x00, 0x60, 0x00, 0x00, 0x00, 0x04, 0x00, 0x00, 0x00, 0xca, 0xfb, 0xff, 0xff, 0x00, 0x00, 0x00, 0x01, 0x14, 0x00, 0x00, 0x00, 0x1c, 0x00, 0x00, 0x00, 0x1c, 0x00, 0x00, 0x00, 0x0d, 0x00, 0x00, 0x00, 0x34, 0x00, 0x00, 0x00, 0x02, 0x00, 0x00, 0x00, 0xff, 0xff, 0xff, 0xff, 0x06, 0x00, 0x00, 0x00, 0xb4, 0xfb, 0xff, 0xff, 0x1b, 0x00, 0x00, 0x00, 0x53, 0x74, 0x61, 0x74, 0x65, 0x66, 0x75, 0x6c, 0x50, 0x61, 0x72, 0x74, 0x69, 0x74, 0x69, 0x6f, 0x6e, 0x65, 0x64, 0x43, 0x61, 0x6c, 0x6c, 0x5f, 0x31, 0x3a, 0x30, 0x00, 0x02, 0x00, 0x00, 0x00, 0x01, 0x00, 0x00, 0x00, 0x06, 0x00, 0x00, 0x00, 0x22, 0xfc, 0xff, 0xff, 0x00, 0x00, 0x00, 0x01, 0x14, 0x00, 0x00, 0x00, 0x1c, 0x00, 0x00, 0x00, 0x1c, 0x00, 0x00, 0x00, 0x0c, 0x00, 0x00, 0x00, 0x74, 0x00, 0x00, 0x00, 0x02, 0x00, 0x00, 0x00, 0xff, 0xff, 0xff, 0xff, 0x10, 0x00, 0x00, 0x00, 0x0c, 0xfc, 0xff, 0xff, 0x58, 0x00, 0x00, 0x00, 0x73, 0x65, 0x71, 0x75, 0x65, 0x6e, 0x74, 0x69, 0x61, 0x6c, 0x5f, 0x31, 0x2f, 0x64, 0x65, 0x6e, 0x73, 0x65, 0x5f, 0x32, 0x5f, 0x31, 0x2f, 0x4d, 0x61, 0x74, 0x4d, 0x75, 0x6c, 0x3b, 0x73, 0x65, 0x71, 0x75, 0x65, 0x6e, 0x74, 0x69, 0x61, 0x6c, 0x5f, 0x31, 0x2f, 0x64, 0x65, 0x6e, 0x73, 0x65, 0x5f, 0x32, 0x5f, 0x31, 0x2f, 0x52, 0x65, 0x6c, 0x75, 0x3b, 0x73, 0x65, 0x71, 0x75, 0x65, 0x6e, 0x74, 0x69, 0x61, 0x6c, 0x5f, 0x31, 0x2f, 0x64, 0x65, 0x6e, 0x73, 0x65, 0x5f, 0x32, 0x5f, 0x31, 0x2f, 0x42, 0x69, 0x61, 0x73, 0x41, 0x64, 0x64, 0x00, 0x00, 0x00, 0x00, 0x02, 0x00, 0x00, 0x00, 0x01, 0x00, 0x00, 0x00, 0x10, 0x00, 0x00, 0x00, 0xba, 0xfc, 0xff, 0xff, 0x00, 0x00, 0x00, 0x01, 0x14, 0x00, 0x00, 0x00, 0x1c, 0x00, 0x00, 0x00, 0x1c, 0x00, 0x00, 0x00, 0x0b, 0x00, 0x00, 0x00, 0x74, 0x00, 0x00, 0x00, 0x02, 0x00, 0x00, 0x00, 0xff, 0xff, 0xff, 0xff, 0x08, 0x00, 0x00, 0x00, 0xa4, 0xfc, 0xff, 0xff, 0x58, 0x00, 0x00, 0x00, 0x73, 0x65, 0x71, 0x75, 0x65, 0x6e, 0x74, 0x69, 0x61, 0x6c, 0x5f, 0x31, 0x2f, 0x64, 0x65, 0x6e, 0x73, 0x65, 0x5f, 0x31, 0x5f, 0x32, 0x2f, 0x4d, 0x61, 0x74, 0x4d, 0x75, 0x6c, 0x3b, 0x73, 0x65, 0x71, 0x75, 0x65, 0x6e, 0x74, 0x69, 0x61, 0x6c, 0x5f, 0x31, 0x2f, 0x64, 0x65, 0x6e, 0x73, 0x65, 0x5f, 0x31, 0x5f, 0x32, 0x2f, 0x52, 0x65, 0x6c, 0x75, 0x3b, 0x73, 0x65, 0x71, 0x75, 0x65, 0x6e, 0x74, 0x69, 0x61, 0x6c, 0x5f, 0x31, 0x2f, 0x64, 0x65, 0x6e, 0x73, 0x65, 0x5f, 0x31, 0x5f, 0x32, 0x2f, 0x42, 0x69, 0x61, 0x73, 0x41, 0x64, 0x64, 0x00, 0x00, 0x00, 0x00, 0x02, 0x00, 0x00, 0x00, 0x01, 0x00, 0x00, 0x00, 0x08, 0x00, 0x00, 0x00, 0x52, 0xfd, 0xff, 0xff, 0x00, 0x00, 0x00, 0x01, 0x14, 0x00, 0x00, 0x00, 0x1c, 0x00, 0x00, 0x00, 0x1c, 0x00, 0x00, 0x00, 0x0a, 0x00, 0x00, 0x00, 0x6c, 0x00, 0x00, 0x00, 0x02, 0x00, 0x00, 0x00, 0xff, 0xff, 0xff, 0xff, 0x10, 0x00, 0x00, 0x00, 0x3c, 0xfd, 0xff, 0xff, 0x52, 0x00, 0x00, 0x00, 0x73, 0x65, 0x71, 0x75, 0x65, 0x6e, 0x74, 0x69, 0x61, 0x6c, 0x5f, 0x31, 0x2f, 0x64, 0x65, 0x6e, 0x73, 0x65, 0x5f, 0x31, 0x2f, 0x4d, 0x61, 0x74, 0x4d, 0x75, 0x6c, 0x3b, 0x73, 0x65, 0x71, 0x75, 0x65, 0x6e, 0x74, 0x69, 0x61, 0x6c, 0x5f, 0x31, 0x2f, 0x64, 0x65, 0x6e, 0x73, 0x65, 0x5f, 0x31, 0x2f, 0x52, 0x65, 0x6c, 0x75, 0x3b, 0x73, 0x65, 0x71, 0x75, 0x65, 0x6e, 0x74, 0x69, 0x61, 0x6c, 0x5f, 0x31, 0x2f, 0x64, 0x65, 0x6e, 0x73, 0x65, 0x5f, 0x31, 0x2f, 0x42, 0x69, 0x61, 0x73, 0x41, 0x64, 0x64, 0x00, 0x00, 0x02, 0x00, 0x00, 0x00, 0x01, 0x00, 0x00, 0x00, 0x10, 0x00, 0x00, 0x00, 0x32, 0xfe, 0xff, 0xff, 0x00, 0x00, 0x00, 0x01, 0x10, 0x00, 0x00, 0x00, 0x10, 0x00, 0x00, 0x00, 0x09, 0x00, 0x00, 0x00, 0x44, 0x00, 0x00, 0x00, 0xbc, 0xfd, 0xff, 0xff, 0x36, 0x00, 0x00, 0x00, 0x73, 0x65, 0x71, 0x75, 0x65, 0x6e, 0x74, 0x69, 0x61, 0x6c, 0x5f, 0x31, 0x2f, 0x64, 0x65, 0x6e, 0x73, 0x65, 0x5f, 0x31, 0x2f, 0x52, 0x65, 0x6c, 0x75, 0x3b, 0x73, 0x65, 0x71, 0x75, 0x65, 0x6e, 0x74, 0x69, 0x61, 0x6c, 0x5f, 0x31, 0x2f, 0x64, 0x65, 0x6e, 0x73, 0x65, 0x5f, 0x31, 0x2f, 0x42, 0x69, 0x61, 0x73, 0x41, 0x64, 0x64, 0x00, 0x00, 0x01, 0x00, 0x00, 0x00, 0x10, 0x00, 0x00, 0x00, 0x92, 0xfe, 0xff, 0xff, 0x00, 0x00, 0x00, 0x01, 0x10, 0x00, 0x00, 0x00, 0x10, 0x00, 0x00, 0x00, 0x08, 0x00, 0x00, 0x00, 0x28, 0x00, 0x00, 0x00, 0x1c, 0xfe, 0xff, 0xff, 0x1b, 0x00, 0x00, 0x00, 0x73, 0x65, 0x71, 0x75, 0x65, 0x6e, 0x74, 0x69, 0x61, 0x6c, 0x5f, 0x31, 0x2f, 0x64, 0x65, 0x6e, 0x73, 0x65, 0x5f, 0x31, 0x2f, 0x4d, 0x61, 0x74, 0x4d, 0x75, 0x6c, 0x00, 0x02, 0x00, 0x00, 0x00, 0x10, 0x00, 0x00, 0x00, 0x06, 0x00, 0x00, 0x00, 0xda, 0xfe, 0xff, 0xff, 0x00, 0x00, 0x00, 0x01, 0x10, 0x00, 0x00, 0x00, 0x10, 0x00, 0x00, 0x00, 0x07, 0x00, 0x00, 0x00, 0x1c, 0x00, 0x00, 0x00, 0x64, 0xfe, 0xff, 0xff, 0x0f, 0x00, 0x00, 0x00, 0x61, 0x72, 0x69, 0x74, 0x68, 0x2e, 0x63, 0x6f, 0x6e, 0x73, 0x74, 0x61, 0x6e, 0x74, 0x35, 0x00, 0x02, 0x00, 0x00, 0x00, 0x08, 0x00, 0x00, 0x00, 0x10, 0x00, 0x00, 0x00, 0x16, 0xff, 0xff, 0xff, 0x00, 0x00, 0x00, 0x01, 0x10, 0x00, 0x00, 0x00, 0x10, 0x00, 0x00, 0x00, 0x06, 0x00, 0x00, 0x00, 0x1c, 0x00, 0x00, 0x00, 0xa0, 0xfe, 0xff, 0xff, 0x0f, 0x00, 0x00, 0x00, 0x61, 0x72, 0x69, 0x74, 0x68, 0x2e, 0x63, 0x6f, 0x6e, 0x73, 0x74, 0x61, 0x6e, 0x74, 0x34, 0x00, 0x02, 0x00, 0x00, 0x00, 0x10, 0x00, 0x00, 0x00, 0x08, 0x00, 0x00, 0x00, 0x52, 0xff, 0xff, 0xff, 0x00, 0x00, 0x00, 0x01, 0x10, 0x00, 0x00, 0x00, 0x10, 0x00, 0x00, 0x00, 0x05, 0x00, 0x00, 0x00, 0x1c, 0x00, 0x00, 0x00, 0xdc, 0xfe, 0xff, 0xff, 0x0f, 0x00, 0x00, 0x00, 0x61, 0x72, 0x69, 0x74, 0x68, 0x2e, 0x63, 0x6f, 0x6e, 0x73, 0x74, 0x61, 0x6e, 0x74, 0x33, 0x00, 0x02, 0x00, 0x00, 0x00, 0x06, 0x00, 0x00, 0x00, 0x10, 0x00, 0x00, 0x00, 0x8e, 0xff, 0xff, 0xff, 0x00, 0x00, 0x00, 0x01, 0x10, 0x00, 0x00, 0x00, 0x10, 0x00, 0x00, 0x00, 0x04, 0x00, 0x00, 0x00, 0x1c, 0x00, 0x00, 0x00, 0x18, 0xff, 0xff, 0xff, 0x0f, 0x00, 0x00, 0x00, 0x61, 0x72, 0x69, 0x74, 0x68, 0x2e, 0x63, 0x6f, 0x6e, 0x73, 0x74, 0x61, 0x6e, 0x74, 0x32, 0x00, 0x01, 0x00, 0x00, 0x00, 0x06, 0x00, 0x00, 0x00, 0xc6, 0xff, 0xff, 0xff, 0x00, 0x00, 0x00, 0x01, 0x10, 0x00, 0x00, 0x00, 0x10, 0x00, 0x00, 0x00, 0x03, 0x00, 0x00, 0x00, 0x1c, 0x00, 0x00, 0x00, 0x50, 0xff, 0xff, 0xff, 0x0f, 0x00, 0x00, 0x00, 0x61, 0x72, 0x69, 0x74, 0x68, 0x2e, 0x63, 0x6f, 0x6e, 0x73, 0x74, 0x61, 0x6e, 0x74, 0x31, 0x00, 0x01, 0x00, 0x00, 0x00, 0x08, 0x00, 0x00, 0x00, 0x00, 0x00, 0x16, 0x00, 0x18, 0x00, 0x14, 0x00, 0x00, 0x00, 0x10, 0x00, 0x0c, 0x00, 0x08, 0x00, 0x00, 0x00, 0x00, 0x00, 0x00, 0x00, 0x07, 0x00, 0x16, 0x00, 0x00, 0x00, 0x00, 0x00, 0x00, 0x01, 0x10, 0x00, 0x00, 0x00, 0x10, 0x00, 0x00, 0x00, 0x02, 0x00, 0x00, 0x00, 0x1c, 0x00, 0x00, 0x00, 0xa0, 0xff, 0xff, 0xff, 0x0e, 0x00, 0x00, 0x00, 0x61, 0x72, 0x69, 0x74, 0x68, 0x2e, 0x63, 0x6f, 0x6e, 0x73, 0x74, 0x61, 0x6e, 0x74, 0x00, 0x00, 0x01, 0x00, 0x00, 0x00, 0x10, 0x00, 0x00, 0x00, 0x00, 0x00, 0x16, 0x00, 0x1c, 0x00, 0x18, 0x00, 0x00, 0x00, 0x14, 0x00, 0x10, 0x00, 0x0c, 0x00, 0x00, 0x00, 0x00, 0x00, 0x08, 0x00, 0x07, 0x00, 0x16, 0x00, 0x00, 0x00, 0x00, 0x00, 0x00, 0x01, 0x14, 0x00, 0x00, 0x00, 0x20, 0x00, 0x00, 0x00, 0x20, 0x00, 0x00, 0x00, 0x01, 0x00, 0x00, 0x00, 0x3c, 0x00, 0x00, 0x00, 0x02, 0x00, 0x00, 0x00, 0xff, 0xff, 0xff, 0xff, 0x06, 0x00, 0x00, 0x00, 0x04, 0x00, 0x04, 0x00, 0x04, 0x00, 0x00, 0x00, 0x1e, 0x00, 0x00, 0x00, 0x73, 0x65, 0x72, 0x76, 0x69, 0x6e, 0x67, 0x5f, 0x64, 0x65, 0x66, 0x61, 0x75, 0x6c, 0x74, 0x5f, 0x6b, 0x65, 0x72, 0x61, 0x73, 0x5f, 0x74, 0x65, 0x6e, 0x73, 0x6f, 0x72, 0x3a, 0x30, 0x00, 0x00, 0x02, 0x00, 0x00, 0x00, 0x01, 0x00, 0x00, 0x00, 0x06, 0x00, 0x00, 0x00, 0x01, 0x00, 0x00, 0x00, 0x10, 0x00, 0x00, 0x00, 0x0c, 0x00, 0x0c, 0x00, 0x0b, 0x00, 0x00, 0x00, 0x00, 0x00, 0x04, 0x00, 0x0c, 0x00, 0x00, 0x00, 0x09, 0x00, 0x00, 0x00, 0x00, 0x00, 0x00, 0x09
};

// Scaler Data
const float SCALER_MEAN[6] = {-62.463733f, 7.352302f, 1.987998f, 55.981865f, 9.939989f, 3.377380f};
const float SCALER_SCALE[6] = {2.582169f, 1.387657f, 0.623535f, 19.759470f, 3.117675f, 0.061111f};

// Threshold
const float ANOMALY_THRESHOLD = 0.010020f;

#endif  // WIFI_MODEL_H
